#version: 0.2 - Trained by `huggingface/tokenizers`
病 甶
病甶 疿
病 甸
疽 痈
疽痈 甶
甸 疽
疽痈甶 疽痈甶
病甶疿 病甶疿
病甶疿病甶疿 痊
病甶 疾
病甸 疽
病甶 病甶疿病甶疿痊
痊 病
病甸 病甶病甶疿病甶疿痊
病甶疿 痋
病甶疿 病
痆 甸
甶 疾
痋 病
痎 痆
病甶疿痋 病甸
病甸病甶病甶疿病甶疿痊 病甶疿痋病甸
病甸病甶病甶疿病甶疿痊病甶疿痋病甸 痎痆
病甶 疽痈甶疽痈甶
甶 疿
痌 痈
病甶疽痈甶疽痈甶 疽痈甶疽痈甶
病甸疽 病甸疽
病甸疽病甸疽 痊病
痍 病
病 电
疽痈 痌痈
病甶疽痈甶疽痈甶疽痈甶疽痈甶 疽痈痌痈
痆甸 疲
痔 病
痒 病
痓 病
痕 病
痖 病
病甶疾 病甶疾
痗 病
痑 病
痘 病
病甶疿 病甸
痙 病
病甶 病甶疽痈甶疽痈甶疽痈甶疽痈甶疽痈痌痈
痐 病
病甸 痆
痚 病
痎 病
痛 病
痋 病甶疿病甶疿痊
痏 病
痜 病
痋病甶疿病甶疿痊 病甸
病甶 痋病甶疿病甶疿痊病甸
病甸病甶病甶疿病甶疿痊 病甶痋病甶疿病甶疿痊病甸
病甸病甶病甶疿病甶疿痊病甶痋病甶疿病甶疿痊病甸 痋病
病甸病甶病甶疿病甶疿痊病甶痋病甶疿病甶疿痊病甸痋病 痍病
痌 病
病甶疿病甸 痊
痝 病
痞 病
痟 病
痠 病
病甶疾 病甶疿病
痡 病
甶 痊
痢 病
病甶疿病甸痊 痆
病甶疿痋 病
痣 病
病甶 病甸痆
痊病 甹
痤 病
痋 痆
畊 痒病
畊 痔病
畊 痕病
畊 痓病
畊 痖病
病甶疿病甶疿痊 病甶疿痋病
痊 病甶疾
病甸 痆甸
畊 痗病
病甶 疽
痥 病
病甶疿 病甶疾
畊 痘病
病甶 病甸病甶病甶疿病甶疿痊病甶疿痋病甸痎痆
畊 痑病
畊 痙病
痈 痌痈
痦 病
畊 痚病
甸 痏
病甸疽病甸疽痊病 畚
畊 痛病
畊 痐病
甸 痊
甸 痓
甶 痏
病 甹
甸 痒
甸 痔
痧 病
病甹 痊病甹
甸 痑
畊 痜病
病甹痊病甹 痋病
甸 痐
痆甸疲 痊病
痆甸 痋痆
甸 痆甸疲痊病
畊 痝病
病甶疿病甸痊 痆甸痋痆
画 病甶疿病甸痊痆甸痋痆
甸 痕
甸 痌
痨 病
甸 痖
畊 痏病
甶 痕
畇 疴
畊 痞病
甸疽 痗病
甶疿 病
甸疽 痘病
甸 痗
甸疽 痙病
甸疽 痖病
甸疽 痕病
甸疽 痔病
甸 痘
畊 痟病
甸疽 痚病
甸 痍
病甸病甶病甶疿病甶疿痊病甶痋病甶疿病甶疿痊病甸痋病痍病 畚
畚 痒病
甸疽 痛病
畚 痓病
病甸痆甸 痊病甶疾
甸疽 痓病
痩 病
甸疽 痜病
畚 痔病
畊 痌病
畊 痠病
畚 痑病
畊 痎病
甸 痋
甸 痙
畚 痕病
甸疽 痝病
甸疽 痒病
甸疽 痞病
甶疾 痊
甶疿 痊病
畚 痐病
畚 痖病
甶 痋
病甸痆甸痊病甶疾 病甶病甶疽痈甶疽痈甶疽痈甶疽痈甶疽痈痌痈
痆 甶
病甶疽 痊
畊 痡病
畚 痘病
痑 病甶疾病甶疾
甶痏 病甶疽痈甶疽痈甶疽痈甶疽痈甶疽痈痌痈
畚 痗病
畊 痍病
病甶 病甶疿病甸痊痆
甶痊 病甶疽痈甶疽痈甶
痈 畊
甸 痚
痪 病
痈畊 病甶疽痊
甸疽 痟病
病甶疾 病甶疿病甶疾
痍 病甶疾病甶疾
疽痈甶 痈畊病甶疽痊
甶痊病甶疽痈甶疽痈甶 疽痈甶痈畊病甶疽痊
甶痊病甶疽痈甶疽痈甶疽痈甶痈畊病甶疽痊 痈痌痈
病甶病甸痆 甶痊病甶疽痈甶疽痈甶疽痈甶痈畊病甶疽痊痈痌痈
病甸 病
畚 痏病
甸疽 痑病
痆 町
畊 痢病
病甶疿病甶疾 痑病甶疾病甶疾
病甶疾病甶疿病甶疾 痍病甶疾病甶疾
病甶疾病甶疿病甶疾痍病甶疾病甶疾 病甶疿病甶疾痑病甶疾病甶疾
甶痕 病甶疽痈甶疽痈甶疽痈甶疽痈甶疽痈痌痈
甶痏病甶疽痈甶疽痈甶疽痈甶疽痈甶疽痈痌痈 甶痕病甶疽痈甶疽痈甶疽痈甶疽痈甶疽痈痌痈
甸疽 痠病
甸 痛
病甶疾病甶疿病甶疾痍病甶疾病甶疾病甶疿病甶疾痑病甶疾病甶疾 病甶疿病
病甶 病
畚 痙病
痌 病甸痆
痍 病甶疿
病甶疿 痍病甶疿
病甶病甶疿病甶疿痊 病甶疿痋
病甶疿痍病甶疿 痎病
病甶病甶疿病甶疿痊病甶疿痋 病甶疿痍病甶疿痎病
畚 痚病
痫 病
甸疽 痡病
病甶病甸痆 甶疾
病甶疾病甶疾 病甶疾病甶疿病甶疾痍病甶疾病甶疾病甶疿病甶疾痑病甶疾病甶疾病甶疿病
病甶疽痈甶疽痈甶疽痈甶疽痈甶 痈痌痈
甸 痜
甸疽 痢病
男 疴
畊 痣病
痊 痆甶
甹 病甹痊病甹痋病
画 病甸痆甸
痋病 甹病甹痊病甹痋病
痊痆甶 痋病甹病甹痊病甹痋病
画病甸痆甸 痊痆甶痋病甹病甹痊病甹痋病
痆 男
痊病甶疾 病甶病
病甶病甸痆甶疾 痊病甶疾病甶病
病甶病甸痆甶疾痊病甶疾病甶病 痌病甸痆
甸疽 痐病
畚 痛病
甸痔 痆
甸 痎
甶 痌
疲 痆
病甶疾 病甶疿病甸
甸痓 痆
甶疾痊 病甶疿病
甸疽 痣病
甶痋 病甸病甶病甶疿病甶疿痊病甶疿痋病甸痎痆
畚 痎病
病甸痆 甶痊
甶 病甸病甶病甶疿病甶疿痊病甶疿痋病甸痎痆
畚 痜病
病甶病甶疽痈甶疽痈甶疽痈甶疽痈甶疽痈痌痈 甶痏病甶疽痈甶疽痈甶疽痈甶疽痈甶疽痈痌痈甶痕病甶疽痈甶疽痈甶疽痈甶疽痈甶疽痈痌痈
甸痒 痆
痬 病
畊 痤病
甶疾 病甶疿病
甸 痝
甶 痍
甸痕 痆
畚 痋病
甶疾 痋
畊 痋病
甶 痊病甹
病甶疽痈甶疽痈甶疽痈甶疽痈甶痈痌痈 甶
甸痖 痆
甶痊病甹 病甹痊病甹痋病
甸痑 痆
甸疽 痤病
痆男 疲痆
甸痗 痆
甸 痞
畚 痝病
病甶疿病甶疿痊 病
畊 痥病
畚 痞病
甸痐 痆
甶疿 痋病
畚 痍病
甸疽 痥病
甶 痎
甸痘 痆
痭 病
甸 痟
甸疽 痏病
甶疾 痌
畚 痌病
畚 痟病
畊 痦病
甸疽 痦病
病甶疽痈甶疽痈甶疽痈甶疽痈甶痈痌痈甶 病
甸痏 痆
甶 痐
痆甸疲 痋病
甸痊 痆甸疲痋病
甸痙 痆
甶痊 病甸病甶病甶疿病甶疿痊病甶疿痋病甸痎痆
病甸痆甶痊 病甶疽痈甶疽痈甶疽痈甶疽痈甶痈痌痈甶病
痈 甶
甶疿 痌病
甸 痠
病甸 病甶疾病甶疿病甸
病甸病甶疾病甶疿病甸 痌
甸 痎痆
甶痌 病甸病甶病甶疿病甶疿痊病甶疿痋病甸痎痆
甶 痑
畚 痠病
甸痚 痆
甶 痒
痆甸疲 痌病
甸痋 痆甸疲痌病
病甶疾病甶疾 病甶疾病甶疾
甸疽 痎病
甸疽 痧病
痮 病
甸痛 痆
甶疾 痍
畊 痧病
痆町 疴
甶 疽
甿 病
甶 痓
甸 痡
病电 痓
畚 痡病
病电 痑
病电 痒
甶 痔
痆甸 痍
甶疿 痍病
痈甶 疽痈
