#version: 0.2 - Trained by `huggingface/tokenizers`
病 甶
痈 甶
痈甶 疽
病甶 疾
病甶 疽
病 甸
痈甶疽 痈甶疽
病甶 疿
痈甶 痈
病 男
病甶疾 病甶疾
甶 疽
痈 痌
痈 男
甶 疾
病甸 痆
痈甶 痈甶
痈 甸
痈甶疽痈甶疽 痈痌
病 甹
痈甶疽 痈
病甶 病甶疽
痈甶疽 痈甶痈
病甶疿 痊
病甶疿 病甶疿痊
病甸 疽
痆 甶
痈甶疽 痈甶
病男 疽
痈甶 疾
痈甶疽痈甶疽 痈甶疽痈甶疽痈痌
病甶疽 痊
病 痌
痆 甸
病甸痆 甸
痈甶痈 男
病甶疿 痋
痈甶 疿
病甶疿病甶疿痊 病甶疿痋
痈 畊
病甶疿 病甸
痊 病甶疽
痊 病甶
病甶疾 病
甶 疿
男 疽
痈甶疽 痈甶痈甶
痆 甶疽
病 畊
甶 病甶疽
痈甶疽 痈痌
痈 痋
病甸 病甶
痈甶疽痈甶 痈甶疽痈甶疽痈痌
病甶 痊
痆 甶疾
病男 疾
痈甶痈 痌
痊 病甹
痈男 疽
病甶疾 病甶疽
痈甶疽痈甶痈 痌
甶疽 甶疽
痈甶疽 痈男
病甶 病甶
痈 甹
病 画
病甸痆甸 痊
痋 病甶疽
痈甶 痈甶疽痈甶疽
病甶病甶疽 痈甶疽痈甶疽痈甶疽痈甶疽痈痌
甶疽 甶
病甹 痊病甹
痋 病甶
病甶疾病甶疾 病痌
病 畚
病甶疾 病甶疿
病甶疿病甶疿痊病甶疿痋 病甸
痈甶疽痈甶疽 痈
病甶疾 病甶
病甸 痊
病甶疾病甶疾 病甶疾病甶疾
男 疾
病甹 病甹痊病甹
痈甶痈 甸
痈甸 疽
病甶疿病甶疿痊病甶疿痋病甸 痎
病甶疾 病男
痈甶疽痈 痍
病甶 病甸痆
病甶疿 病甶疽
病甸病甶 病甶疿病甶疿痊病甶疿痋病甸痎
病甶 痋
痆甶 疿
病甶疾病甶疾 病
痈甶疽痈甶疽 痈甶疽痈甶痈痌
病甶疾病甶疾 病男
甶 甶疽
痈甶疽痈甶疽 痈甶
痈男 疾
痊 病
病甶疿 病甶疾
痈 畚
痈 画
痆 男
病男 症
病甶疽 痈甶疽痈甶疽痈甶疽痈甶疽痈痌
甶 甶
病甶疿 病
病 痋
痈甶疽痈甶痈 甸
甶疾 甶疾
甸 甶
痈 痍
畊 病甶疽痊
痋 病
痈甶痈 痋
病甸病甶病甶疿病甶疿痊病甶疿痋病甸痎 痆
病甸痆 甶
病男疽 病甶
甶 病甶
痊 病甸
痋 病甸
痈男 痈
病甶疿病甶疽 痋
病甶疿 病甶
病甶疾 病甶病甶疽痈甶疽痈甶疽痈甶疽痈甶疽痈痌
痈甶痈男 疽
病甶疾病甶疾 病甶疽
痆甸 疽
痆 畊
病甸痆 男疽
病甶疾 病甶病甶疽
病甶疾 病甶疿病甸
病甶疿病甶疿痊 病甸
甹 病甶疽痊
病甶疾 病甸
病 电
病男 痊
病甶疾 病痌
病甶疿病甸 痊
病甶疾病甶疾 病甸
痈甶 痋
痈甶疽痈甶痈 男
痈甶疽痈甶疽痈甶 痈甶疽痈痌
痈甶 病甶疽
痈甶疽痈甶疽 痈甶疽痈
病甸疽 病甸疽
病甶 甸
痈甶痈 痍
痈男 疴
病甸痆甸 痊病甶
痈甶痈甶 疾
病甶病甶疽 痈甶疽痈甶痈甶疽痈甶疽痈痌
甶 甸
病甶疿病甸 痋
病甶 病男
痍 病
痈痌 痈甶
病甹病甹痊病甹 痋病甶疽
痆 男疽
痈甶痈甶 疿
痈甶疽痈 痎
痈甶痈甶疽痈甶疽 痈甶疽痈痌
痈痋 痈甶
痋 病甶疾
痈甶疽痈 痐
病甸痆 男疾
痈甶痈甶疽痈甶疽 痈甶痈痌
痊 病甶疾
痈甶疽痈甶疽 痈甶痈痌
痒 病
痓 病
痊 病男
病甶疾病甶疿病甸 痌
痔 病
痈甸 痋
病甸痆甸痊病甶 病甶疿病甶疿痊病甶疿痋
痕 病
病甸痆甸 疲
痈甶疽痈甶疽 痈甶痈
痑 病
痖 病
痈痌 痈甸
病甸 病甸痊
男 甶
病甶病甸痆 甶
痈甶疽痈 痏
病甸 病甶疿病甸痋
痆甸 疲
痐 病
痗 病
痍 病甶疽
痈男 痈甶
痈甶疽痈甶 痈甶疽痈甶痈痌
病甸疽病甸疽 痊病
病甸痆 男
痘 病
痈甶疽痈 痋
痈甶痈男 疾
病男疽 甶疾
病甸 病甶疾病甶疿病甸痌
病甶疿病甶疿痊 病甶痋
病甶病甶疽 痈甶疽痈甶痈甶
甶疿 甶
痍 病甶
甸 疽
病甶疾 痋
痎 病
病甶疾病甶疾 病甶
痌 病甶疽
痙 病
痈 痏
病甹病甹痊病甹痋病甶疽 痍
痌 病甶
病甸痆甸痊 病甶疾病甶疿
痚 病
病甶疾病甶疾病男 病甶疾病甶疾病痌
病甹病甹痊病甹 痋
痈甶痈甶 病甶疽
甶 男
病甸痆 甶疾
甶疽 痋
病甶疿 病甶痋
病甸痆甶 痊病甶疽
痆 畚
痈甶 痈甶痈
痈甶疽痈甶疽 痈男
痛 病
痏 病
病甶疾 痊
痈甶疽痈甶痈 畊病甶疽痊
痈 痎
痆甶 病甶疽
疲 病甸痊
痈痋 痈甶疽
病甶疾病甶疾 病甶疾病
病甶疾 病男疽
痈甶疽痈甶痈 甹病甶疽痊
痈甶 痏
痜 病
病甶疾病甶疾 病男疽
痈甶 甶疽
痆 男疾
痌 病
痈甶 痊
痈 痐
病甶疿病甶疿痊病甸 痋病
痈甶疽痈甶痈甶 疾
病甶疿 病男
病甸病甶 病甶疿病甶疿痊病甶痋
病甶疾病甶疾病甸 病甶疾病甶疾病痌
痈甸 痊
病甸痆 甶疿
痈男 痈男
病甸病甶病甶疿病甶疿痊病甶痋 病甶疿病甶疿痊病甸痋病
病男 病甶
甶疾 病甶疽
病甸痆甸 疽
痝 病
痈痋 痈甶疾
甶疾 甶疽
痈甶 痈甶疽痈甶
病甶疿病甶疾 痊
痈甶疿 病甶疽痊
痈甶痈 画
痈畊 病甶疽痊
痞 病
痆甸 痋
痆甶 痊病甶疽
病甶 甶疽
病甶疿病甶疿痊 病甶疽
痈甶疽痈甶痈 痍
痎 病甶疽
痈甹 病甶疽痊
痈痌 痈甶疽
病甶疾 病甶病甶
病甶 痌
痈甶 痈甶痈男
病甶疽痊 痈甶疽痈痍
甶病甶疽 痈甶疽痈甶痈甶疽痈甶疽痈痌
病甸 疲病甸痊
病甶疽 病甶疽
痈甶痈 畊病甶疽痊
痈甶痈甶 痈甶疽痈甶疽痈痌
病甸痆男疽 痊
甶 病男
甶疾 病甶疾病男
病甶疾 病甸疽
痆甶疽 痌
畊 病甶痊
痈甶 痈甶疽
痟 病
病甶疿 病甶痊
痊 病畊
病甶疾病甶疾病甶疾病甶疾 病甶疾病痌
甹 病甶痊
痈甶疽痈 痑
病甸痆 甶疽
病甸 痋
病甸痆男 痊
痈甶疽痈甶疽痈甶疽痈甶痈痌 痈甶
痐 病甶疽
痊病甶疽 痌
病甶疾病甶疿 病
痆男 痊
病甶疿 病畊
痈甶疽痈甶疽 痈甶痈甶
痈痌 痈甶疾
病甶疾 甶疾
痠 病
痈甶疽痈甶疽痈 痍
痈甸 痑
痎 病甶
痍 病甸
痈甶疽痈甶疽痈甶疽痈甶疽痈痌 痈甶
痈甶疽痈甶疽痈甶 痈甶痈痌
痈痋 痈甶疿
男 疴
痊 病畚
病甶疿 病甸疽
痈甶疽痈甶痈 男疽
痈男 痈甶痈男
病男疾 病甶
痈甶疿 病甶痊
病甶病甸痆甶 痊病甶疽
痈甶痈 甹病甶疽痊
病甶 痍
痈甶痈 痏
痆甶 痊
痈甶疽痈甶痈甶 痈甶疽痈痌
痋 病男
痡 病
病甶疾 痍
病 痍
痏 病甶
痈甶痈甸 病甶疿病甶疽痋
痈 甿
痈甶疽痈甶痈甹病甶疽痊 痈甶疽痈痍
痈甶疽痈甶痈甶疽痈甶疽痈痌 痈甶痋
痈痌 痈畊
痈甶疽痈甶痈畊病甶疽痊 痈甶疽痈痍
痈甶疽痈 痔
病甶 痊病甶疽
痈甶痈 痎
病甶 病甶疿病甶疿痊病甶疿痋
痈甶疽痈甶痈甸 病甶疿病甶疽痋
病甸疽 病甸痊
痆甸 痊
痈甶疽痈甶 痈甶疽
病男症 甶疽痋
痈甶痈甶 痈甶
痈甶疽痈 痒
痊病甹 病甹痊病甹
甶疾 男
病甶病甸痆 甶疾
病甶病甶疽痈甶疽痈甶疽痈甶疽痈甶疽痈痌 痈
痈甶痈 痐
痈甸 痏
甶 甶疾
痢 病
痑 病甶疽
痈甶痈甸 疽
病甶疿病甸痊 痆
痐 病甶
甶疽甶 痈甶
甶疽 男
痈甶疽痈甶痈甶 疿
病甶病甸痆 男疽
痏 病甶疽
痈甶疽痈 痓
痈甸 病甶疿病甶疽痋
甶病甶疽 痈甶疽痈甶疽痈甶疽痈甶疽痈痌
痈甶痈甶疿 病甶疽痊
痍 病甶疿
痈痌 痈甶疿
病甶病甶疽 痈甶疽痈甶疽痈甶疽痈甶痈痌
病甹 病甹
痈甶疽痈甶疽 痈甶疽痈痌
病甸病甶病甶疿病甶疿痊病甶痋病甶疿病甶疿痊病甸痋病 痍病
病甹病甹痊病甹 痋病甶
病甶疾病甶疾 病甶疾病甶疿
病甶疿病甸痊 痆甸痋
病男疽 病甶疽
痈甸 痐
畚 病甶疽痊
病甶疽痈甶疽痈甶疽痈甶疽痈甶疽痈痌 痈甶
痆甶疽 痍
痈甶 痌
痈甶疽痈甶痈 画
病甶疿 病甶疿
男 甶疽
痈 痑
病画 甸
痣 病
甶疿 病甶疿痊
病甸痆甸痊 痆甶
痈甶疾 痋
痈痌 痈男
甹 甶
甶疽甶疽 痈甶痈甶
病甶疾 痌
病甹病甹痊病甹 痋病甸
病男疾 病甶甸
痈男 痈甶痈甶
病甸 痌
痈甶 痈甶疽痈男
病男疾 甶疾
病甶疾病甶疾病甶疽 病甶疾病甶疾病痌
痊病甶 病甶
痌 病甸
痊 病甶疿
痈男 痈甶疽痈男
病甸病甶 病甶
痈甶疽痈 痕
病男 疴
病甶病甶疽痈甶疽痈甶疽痈甶疽痈甶疽痈痌 痈甶痏
痓 病甶疽
痈甶痈甶疿 病甶痊
痈 痒
病甶疿病甶疿痊病甶疿痋 病
痤 病
痈甶疽痈甶疽 痈甶疽痈男
病男症 甶
痈甶疽痈甶疽 痈甶疽痈甶疽痈甶痈痌
甶疽甶疽 痈甶痈甶疽痈甶疽痈甶痈痌
痐 病甶疾病
痈甶疽痈甶疽痈 痐
痈甶疽 痋
病甶 痋病甶疽
病甶疽 痋
痈甶疽痈甶疽 痈甶疽痈痍
甶疿 甸
病甶疽 痍
痈甶痈甶疽痈甶疽 痈甶疽痈甶疽痈甶痈痌
痆甶疾 痊
痎 病甸
痊病甸 痋
病 痋病甶
病甸痆甶疾 痊
痈甶疿 病男痊
痈甶疽痈 痖
病甶疿 病畚
痆 甹
病甶 男
痈甶疽痈甶痈甸病甶疿病甶疽痋 痈甶疽痈痎
痆男 疲
病甶病甶疽 痈甶痈甶
痈甶疽 痊
病甶疽 痌
病甸痆甸痊病甶病甶疿病甶疿痊病甶疿痋 病甶疾
痈甶疽痈甶痈男 疴
痈甶 痊病甶疽
甶 男疽
病甸病甶病甶疿病甶疿痊病甶疿痋病甸痎 痆甶疾
痈甶痈男 疴
痑 病甶
痆甶 病甶
病甸痆甸痊 病甶疾病甶病甶疽痈甶疽痈甶疽痈甶疽痈甶疽痈痌
痒 病甶疽
甶疾 甶
痈甶疽 痑
痈甶 病甶
痥 病
痈甶疽痈甶痈甶疽痈甶疽痈痌 痈甸痋
痈甶 痋病甶疽
痈甶疽痈甶痈甸 疽
病甶疾病甶疾病甶疾病甶疾 病痋
甶疿 病甸痊
痈甶疽痈甶痈甶 病甶疽
痈 痓
痆 画
痈甶 痈甶痈痌
病甶疾病男 病甶
病男 病甶疽
病甶疾 甶
痈甶疽痈甶疽痈甶疽痈甶疽痈痌 痈甶疾
痊 病甸疽
病甶疾 病男疽病甶
痈甶疽痈甶痈甶疽痈甶疽痈痌 痈甹
痈甶痈甶疽痈甶 痈甶疽痈痌
病 痐
痈痌 痈男疽
病甶疿病甶疿痊 病甶
病甸 痍
甶疽 甶疾
痈甶疽痈甶痈甶疽痈甶疽痈痌 痈畊
痈甶疽痈男 痈甶疽痈甶疽痈痌
痈甶疽痈甶疽痈 痏
痈 电
痈甶疽 痏
病甶疾病甶 病痌
病男疾 甶疽
痓 病甶
病 痏
痆甶疽 痊
痋 病甶疿
病画 病甶疿病甸痊痆甸痋
痈甶痈 畊病甶痊
痈甶痈 痑
痈痋 痈甸
痦 病
痈甶疽痈甶痈 痋
病男疾 甶病甶疽
病甶疾病甶疾病甶疾病甶疾 病甶疾病甶疾病甶疾病甶疾
痈 痔
甶 甶病甶疽
病甶疾病甶疾 病男疽病甶
病甶病甸痆甶疾 痊
痈甶疽痈 痗
痈甶疽痈甶痈 男疾
痋 病畊
病甶疾病甶疾 病甶疾病甶疽
痒 病甶
病男疽 病甶病甶疽
痈痌 痈甹
甶疾甶疾 病甶疽
病甸 病甶疽
病男疾 病甸痊
病甶疾病甶疾 病甶疿病甶疾
病男疽 病甶病甶
病甶疾病甶疾病男 病甶
病甸 痏
痎 痈甶疽痈痑
甶疾 甸
甶疿 甶疽
病甶疾病甶 病男
病甶病甸痆 甶疽
痈甶 病男
甸 画
病甶疽 痏
甶疿 甶疾
病甶疾病甶疾 病甶疾病男
痈甶痈甸 病甶疿病甶痋
病痌 病甶
病甸疽 病甶疾
痈甶疽痈甶 痈甶疽痈男
痈甶疽痈甶疽痈甶痈 畊病甶疽痊
痈男痈 痏
病甶疾病甶疾病男疽 病甶疾病甶疾病痌
痈甶疽痈 痘
病甸痆甸痊 病甶疿病甶疽
病甸疽病甸疽 痊病畚
痈甶痈 甹病甶痊
病甸 痔
痈甶疽痈甶疽 痈甶痈男
痔 病甶疽
痍 病甶疾
病甸 痓
痈甶疽 痐
病甸 痒
痈甶疽痈 痙
病 畉
痈甶疾 痊
病甶疾病甶疾病男病甶疾病甶疾病痌 病甶痋
病甶疿病甶疿痊 病甶疾
痍 病畚
痈甶痈 痒
病甶疿 病甶疽痊
痧 病
痈甸 痓
病甶疾病甶疽 病
甶疾甶疾 病男
病甸痆甸疲 痊病
病画 病甸痆甸痊痆甶
甶 甶疿
病甸 痐
痆甶 痌
痈甶 痐
病甶疾病甶疽 病甶
痈男 痋
痈甸 痒
病甶疽 痐
痈痌 痈甸疽
病男 痍
痈男 痈甶疽痈甶疽痈甶疽痈痌
甶疾 男疽
痈 痕
病甶疿 病男疽
病甶疾 病甸病甶
痈甶疽痈甶疽痈甶疽痈甶痈痌 痈甶疾
痈甶疽痈甶疽痈甶疽痈甶疽痈痌 痈甶疽
病甸 痕
痋 病甸疽
病甶 痎
病甶疽 病甶
病甸痆男疽 痊病甶疽
病甶疾病 画
病甸 痖
甶病甶疽 痈甶疽痈甶痈甶
痈甶疽痈甶疽 痈甶痈痍
疲 男疴
甸甶 痆甸
痈甸 痌
病甶病甸痆 男
病男 痈甶痈甶
痈甶 痈甶痈甸
病甶疿病甶 痊病甶疽
痈甶 痊病甹病甹痊病甹
病甸 痑
病甸痆甶 痊病甶
病甶疾病甶疾 病甸疽
痈甸 痔
病甶疽痈甶疽痈甶疽痈甶疽痈甶疽痈痌痈甶 痕
病甶疿 痍病甶疿
痕 病甶疽
痈甶疽痈 痚
痈甶痈甶疽痈甶疽痈甶疽痈痌 痈甶痌
痈畊 病畊
病甸痆甸疲 痊病甶疽痌
病甸 病甶病甶疽
痈男疽 病甶
甶疾 病甶
男疽 甶
痈痌 痈
病甶病甶疽痈甶疽痈甶疽痈甶疽痈甶疽痈痌 痈甶疾
病甸 痗
病甸 病甶疾病甶病甶疽痈甶疽痈甶疽痈甶疽痈甶疽痈痌
痈男 痏
病画病甶疿病甸痊痆甸痋 痆
病甸痆 甶疽痋
病甶疾病甶疿 病甶疾痋
病甸疲病甸痊 痆甶疽痌
甶疾 病甶疾病甶疽
痈甶痈甶疿 病男痊
痈甶疽痈甶疽痈男 痈甶疽痈痌
痈甶痈 痓
痆男疽 痊
痈 痖
甶 症
痨 病
病甶 病甸病甶病甶疿病甶疿痊病甶疿痋病甸痎痆
痈甶疽痈甶痈 痎
痆甸 痍
痈痌 痈男疾
痈甶疽痈甶疽痈 痎
痍 病男
痈甶疽痈甶痈甶 病甹病甹痊病甹痋病甶疽痍
痊 病男疽
痊病甶 痌
病甶疿病甶疾痊 病甶疾病
病甸痆甸 痊病甶疽
病甶疿病男 痋
痈甸 痕
痈甶疽痈甶疽 痈甶痈甶疾
痈甶痈甶 病甹病甹痊病甹痋病甶疽痍
畇 疴
甶 男疾
痆甶疽 痎
病甶 甶
病甶疾病甶疾 病甶病甶
痈甶 痑
痈甶疽痈甶疽 痈甶疽痈甶疽痈
痆甶 痊病甶
病甶疽 痆甶
病 痎
痈男 痊
甶疾 病甶疾病甸
痈甶疽痈 痛
痈甶疽痈甶痈 痐
痈甸 痖
痈甶痈 痔
病甸 痘
畊 病男痊
病男疽甶疾 病甶疾病男
病甶疽痈甶疽痈甶疽痈甶疽痈甶疽痈痌痈甶痕 病甶疽痈甶疽痈甶疽痈甶疽痈甶疽痈痌
痈甶疽痈甶疽痈甶疽痈甶疽痈痌痈甶 痍
病 痑
痆甸 痑
病甶疾 痎
病甹病甹痊病甹 痋病
病甶疾病甶疾 病甶疾病甶疾病痌
痈甶疽痈甶疽痈甶疽痈 痋
痈 痗
病男 痌
痑 痈甶疽痈痔
病甶疽 痎
痈甶 病甶疽痈甶疽痈甶疽痈甶疽痈甶疽痈痌
痈甸 痗
病甸 痎
痈甶 痈甶疽痈痌
甶疽甶 痈甶疾
痈甶痈甶疽痈甶疽 痈痍
痈画 痋
病 甿
病画甸 痆甸痊
痈甶疽痈 痜
病甶 痏
痈甶痈男 痈男
痒 痈甶疽痈痕
痈甹 病甶痊
病甶病甶疽 痈甶疽痈甶痈甶疽痈甶痈痌
病男症 甸
痖 病甶疽
痈甹 病甹
痈甸 痍
痆甶疽 痐
病甸 痙
痆甶疽 痓
痔 病甶
病甹病甹痊病甹 痋病甶疾
病甶疾病甶疽 病甶疽
病男 痏
痈男痈甶 痈甶疽痈甶疽痈痌
病甸痆甸痊 痆甶疿
痈甶疿 病甶疿
病甶病甸痆 甶疿
病甸痆甶疿 痊病甸痋
病甸病甶病甶疿病甶疿痊病甶痋病甶疿病甶疿痊病甸痋病 痍病畚
病甸痆甶疽 痊
甶疾 病甶病甶疽
痈男痈 痐
痈甶疾 痌
痈甶疾 病甶疽
痩 病
病甶疿病甶疿痊病甶疽 痌
痈甶疽痈甶痈 痏
痈甶痈 畚病甶疽痊
痈甶疾 病甶
甸甶 痆男疽
痈甶疽痈 画
病甸疽 病甶疾痊
病甶疾病甶疾病甶疾病甶疿 病甶疾痍
痈甸 痘
痆甶疽 痏
病甶 痐
痈甶痈 痕
痈甶疽痈 痝
痊病甶 病男
痈 痘
病甶病甸痆 男疾
痈甶疽痈甶疽痈甶疽痈 痎
甶疽甶 痈甶疽痈甶疽痈甶痈甶疽痈痌
痈甶痈男 痈甶痈痋
痈痌 痈畚
痈甶 痈甶痈男疽
病甶甸 痆甶痊病甶疽
病甹病甹 痊病甶
病画 痊
病甶病甶疽 痈甶疽痈甶痈甸
痈甶疽 痓
病 痓
痆甶疽 痔
病男症 甶疽
甶病甶疽 痈甶痈甶
痗 病甶疽
痕 病甶
痐病甶疾病 痓
痑 病甶疾病甶疾
痆甸 痔
病甶疾病甶疽 病甶疾病甶疽
痎 病甶疾
痈甶疽痈甶疽痈男 痈甶痈痌
病甶疾病甶疾 病甶疾病甶
病 痒
病甶病甶疽痈甶疽痈甶痈甶疽痈甶疽痈痌 痈甶痋
病甸痆甸痊病甶疾病甶病甶疽痈甶疽痈甶疽痈甶疽痈甶疽痈痌 痈
痆 町
痆甶 痍
病男 痋
病甶疾病甶疽 病甶疾病甶疾病
痈甸 痙
痈甶疽痈甶疽 痈甶痈甸
痌 病甶疾
痆 甿
痌 病甶疿
病男症甶 痋
痈痋 痈畊
甸 甶疿
症 甶
病甶疾病甸 病
痈甶疽痈男 痈男
甶疾病甶疾病男 病甶疾病甶疾病痌
甸 甶疾
痈甶疽痈甶痈甶疿 病甶疽痊痈甶疽痈痍
痆甸 痐
痑 病甶疾病
痈甶疽痈 痞
痈甶 痈甶疽痈痍
痈甶痈 痖
病甶疾病甶病甶疽痈甶疽痈甶疽痈甶疽痈甶疽痈痌 痈甶疾
痈甶疽痈甶痈 甹病甶痊
病甶 痑
痈甶疽痈甶疽痈 画
病甶病甶疽 痈甶疽痈甶疽痈甶痈甶疽痈痌
病甶病甶疽痈甶疽痈甶疽痈甶疽痈甶疽痈痌痈甶痏 病甶疽痈甶疽痈甶疽痈甶疽痈甶疽痈痌痈甶痕病甶疽痈甶疽痈甶疽痈甶疽痈甶疽痈痌
病甶病甶 病甶
痈甶疽痈甶痈 畊病甶痊
病甸痆甸痊 病甶疿病
痈男 痈痍
痈甶疽痈甶痈男 痈甶疽痈痌
病甸 痚
甸 痆甶痊病甶疽
痈甶疽痈男 痈甶痈甶痈痌
痈甶疽痈甶疽痈甶疽痈甶疽痈痌 痈男
病甶疾病甶疾 病甶疾病痌
病甸 痛
痈甶疽痈甶 痈甶疽痈痍
痘 病甶疽
痆甶疾 痌
病甸痆甶 痊
痈甶 痈甶痈痋
病甶疾 甶病甶疽
甶疿 男
甶疽甶疽 痈甶疽痈甶痈甶
痈甶疽痈甶疽 痈甶痈痋
病甶疾病甶疽 病甶疾病
痈甶疽痈甶 痈甶痈男
病男症 甶疾
痍 痈甶疽痈痐
痆甸 痓
畉 病甶疿病甶疿痊病甶疿痋
病甶 痊病甶
痍 病畊
病男疽 甶
病甶疽 病甶疿病甶疿痊
痎 病男
痪 病
病甶疾病甶疾病甶疿病甶疾 痑病甶疾病甶疾
痈 痙
痆甸 痒
痈甶痈男疾 病男痊
病甶疾病 痏
病甶疿病甶 痍
痆甶疽 痖
病甸病甶病甶疿病甶疿痊病甶疿痋病甸痎 痆甶
痈甶疽痈 痟
病甶病甶疽痈甶疽痈甶痈甶疽痈甶疽痈痌 痈甸痋
痈甶疽痈甶疽痈甶痈畊病甶疽痊 痈痌痈
痆甶疽 痕
痈甶疽痈甶痈甶疽痈甶疽痈痌 痈甶疿
病甸病甶疿病甸痋 痆甶疽痍
病甶疾病甶疽 病痌
痈痋 痈男
痈甶疽痈甶疽痈甶疽痈甶痈痌 痈甸
痈甶疾 病男
痈甶 痈甶疽痈甶痈甶
痈甶疽痈甶痈甸 病甶疿病甶痋
痈男疽 痋病甶
痋 病甹
病甶疽 痑
病甶病甸痆男疽 痊
痆甶 痎
痈男痈甶 痈甶痈痋
甶疽甶 痈甸
病甸痆男疾 甶疽
痈甶疽痈甶痈 畚
病甶病甶疿病甶疿痊病甶疿痋 病甶疿痍病甶疿
痆甸 痕
病甶病甸痆甶 痊病甶
病甶疾病甶疾病甶疾病甶疿病甶疾痍 病甶疾病甶疾病甶疿病甶疾痑病甶疾病甶疾
病甸病甶疾病甶病甶疽痈甶疽痈甶疽痈甶疽痈甶疽痈痌 痈甸痑
痈甸 痚
甶疽甶疽 痈甶痈甶疾
痒 病甶疾病
畊 甶病甶疽
甶疿 甶病甶
痈甸 痎
痆甶疽 痑
痈甶痈 痗
痈甶疽 痈男疽
痈甶疽痈甶疽痈 痑
痈甶疽痈甶痈甶疽痈甶疽痈痌 痈甶疾痋
痈男 痈甶疾
病甶疾病 痐
甶甶 病甶
痈甶疽痈 痠
痆甸 痗
痙 病甶疽
痈甶疽痈男 痈甶疽痈痋
