#version: 0.2 - Trained by `huggingface/tokenizers`
病 甶
痈 甶
痈甶 疽
病甶 疾
病甶 疽
病 甸
痈甶疽 痈甶疽
病甶 疿
痈甶 痈
病 男
病甶疾 病甶疾
甶 疽
痈 痌
痈 男
甶 疾
病甸 痆
痈甶 痈甶
病 瘭
痈甶疽痈甶疽 痈痌
痈甶疽 痈
病 甹
病甶 病甶疽
痈甶疽 痈甶痈
痈 甸
病甶疿 痊
病甶疿 病甶疿痊
甶 疿
痈甶疽 痈甶
病男 疽
痈甶 疾
痈甶疽痈甶疽 痈甶疽痈甶疽痈痌
病甶疽 痊
病 痌
痈 瘭
病甸 疽
痈甶痈 男
甸 疽
病甶疿 痋
痆 甶
病甸痆 甸
病甶疿病甶疿痊 病甶疿痋
痈甶 疿
痊 病甶疽
病甶疾 病
痆 甸
痊 病甶
病甶疿 病甸
痆 瘭
男 疽
痈甶疽 痈甶痈甶
痆 甶疽
甶 病甶疽
痈甶疽 痈痌
痈 痋
病甸 病甶
痈甶疽痈甶 痈甶疽痈甶疽痈痌
病甶 痊
痈甶痈 痌
病男 疾
痈男 疽
痊 病甹
痆 甶疾
病甶疾 病甶疽
痈甶疽痈甶痈 痌
痈 畊
甶疽 甶疽
痈甶疽 痈男
病甶 病甶
病 画
痋 病甶疽
病甸痆甸 痊
痈甶 痈甶疽痈甶疽
痈 甹
病甶病甶疽 痈甶疽痈甶疽痈甶疽痈甶疽痈痌
甶疽 甶
病甹 痊病甹
病甶 病甸痆
病瘭 畊
病甶疾病甶疾 病痌
病甶疾 病甶疿
痈甶疽痈甶疽 痈
病甶疾病甶疾 病甶疾病甶疾
病瘭 甸
男 疾
病甶疿病甶疿痊病甶疿痋 病甸
痋 病甶
病甸 痊
病甹 病甹痊病甹
痊 病
病甶疾 病甶
病甶疿病甶疿痊病甶疿痋病甸 痎
病甶疾 病男
痈甶疽痈 痍
病甶疿 病甶疽
病甸病甶 病甶疿病甶疿痊病甶疿痋病甸痎
痈甶痈 甸
病甶疾病甶疾 病
病甶 痋
痈甶疽痈甶疽 痈甶疽痈甶痈痌
病甶疾病甶疾 病男
甶 甶疽
病瘭 甸疽
痆 甶疿
痈甶疽痈甶疽 痈甶
痈男 疾
病瘭 畚
痈 画
病甶疿 病甶疾
痆 男
病男 症
病 痋
病甶疽 痈甶疽痈甶疽痈甶疽痈甶疽痈痌
甶 甶
痋 病
甶疾 甶疾
痈瘭 畊
甸 甶
病甶疿 病
痈 痍
畊 病甶疽痊
痈甶痈 痋
痈甸 疽
甶 病甶
病甸病甶病甶疿病甶疿痊病甶疿痋病甸痎 痆
病男疽 病甶
痈男 痈
病甶疿病甶疽 痋
病甸痆 甶
痈甶痈男 疽
病甶疾病甶疾 病甶疽
痈甶疽痈甶痈 甸
病甶疾 病甶病甶疽痈甶疽痈甶疽痈甶疽痈甶疽痈痌
痈甶 痋
病甶疾 病甶病甶疽
病甶疿 病甶
病甶疾 病甸
甹 病甶疽痊
痊 病甸
病男 痊
病甶疾 病痌
病甶疿病甶疿痊 病甸
病甶疿病甸 痊
病甶疾 病甶疿病甸
痍 病
病甹病甹痊病甹 痋
病甶疾病甶疾 病甸
痈甶疽痈甶痈 男
痈甶疽痈甶疽痈甶 痈甶疽痈痌
痈瘭 甸
痈甶 病甶疽
痈甶疽痈甶疽 痈甶疽痈
病甶 甸
病甸痆 男疽
痆瘭 畊
病甸疽 病甸疽
痈甶痈 痍
痈男 疴
痈甶痈甶 疾
病甸痆甸 痊病甶
病瘭 甶
病甸疽病甸疽 痊病
病甶病甶疽 痈甶疽痈甶痈甶疽痈甶疽痈痌
痈瘭 甸疽
痈瘭 畚
病 电
病甶 病男
病甶疿病甸 痋
病甹病甹痊病甹 痋病甶疽
痆甸 疲
痆 男疽
痈甶痈甶 疿
痈甶疽痈 痎
痆瘭 甸疽
痈甶痈甶疽痈甶疽 痈甶疽痈痌
痈痌 痈甶
甶 甸
痈甶疽痈 痐
痈甶痈甶疽痈甶疽 痈甶痈痌
痊 病甶疾
痈甶疽痈甶疽 痈甶痈
痒 病
痓 病
痈甶疽痈甶疽 痈甶痈痌
痈痋 痈甶
痔 病
病甶病甸痆 甶
病甸痆甸痊病甶 病甶疿病甶疿痊病甶疿痋
病甶疾病甶疿病甸 痌
痊 病男
痈甸 痋
病甸 病甸痊
痕 病
病甸 病甶疿病甸痋
痑 病
病甸痆 男疾
痖 病
痈 畚
男 甶
痋 病甸
痐 病
痈甶疽痈 痏
痗 病
痍 病甶疽
痈男 痈甶
痈甶疽痈甶 痈甶疽痈甶痈痌
病瘭 甶疾
痘 病
病甸 病甶疾病甶疿病甸痌
痈甶疽痈 痋
痈甶痈男 疾
病甶疾 痋
病男疽 甶疾
病甶疿病甶疿痊 病甶痋
病甶病甶疽 痈甶疽痈甶痈甶
痎 病
甶疿 甶
痌 病甶疽
痙 病
痆瘭 甸
甶疾 痊
痈痌 痈甸
痈甶 痈甶痈
病甶疾病甶疾 病甶
痈 痏
病甹病甹痊病甹痋病甶疽 痍
痍 病甶
病瘭 甶疿
痚 病
病甶疾病甶疾病男 病甶疾病甶疾病痌
甶疽 痋
痈甶痈甶 病甶疽
甶 男
痌 病甶
病甸痆 男
痏 病
病甶疿 病甶痋
痈甶疽痈甶疽 痈男
痛 病
痈甶疽痈甶痈 畊病甶疽痊
痋 病甶疾
痈 痎
痆甶 病甶疽
病 畊
病甸痆甸 疲
病甸痆甶 痊病甶疽
疲 病甸痊
病甶疾 病男疽
痈痋 痈甶疽
病甶疾病甶疾 病甶疾病
痈甶疽痈甶痈 甹病甶疽痊
病甶疾病甶疾 病男疽
病甸痆甸痊 病甶疾病甶疿
病甶疾 痊
痈甶 甶疽
痜 病
痆 男疾
痌 病
痆瘭 畚
痈 痐
病甶疿病甶疿痊病甸 痋病
痈甶 痏
痈甶疽痈甶痈甶 疾
痈甶 痊
病甸病甶 病甶疿病甶疿痊病甶痋
病甶疾病甶疾病甸 病甶疾病甶疾病痌
痈男 痈男
病甸病甶病甶疿病甶疿痊病甶痋 病甶疿病甶疿痊病甸痋病
病男 病甶
病甶疿 病男
甶疾 病甶疽
病甸病甶病甶疿病甶疿痊病甶痋病甶疿病甶疿痊病甸痋病 痍病
痝 病
甶疾 甶疽
痈甸 痊
痈甶 痈甶疽痈甶
男 疴
痈甶疽痈甶痈甶疽痈甶疽痈痌 痈甶痋
病甸痆 甶疿
痈甶疿 病甶疽痊
痈痋 痈甶疾
痈甶痈 画
病甶疿病甶疾 痊
痈畊 病甶疽痊
病甶疾 病甶病甶
痆甶 痊病甶疽
病甶 甶疽
痞 病
病瘭 甿
病甶病甸痆 男疽
病甶疿病甶疿痊 病甶疽
痈甶疽痈甶痈 痍
痈甶疽痈男 痈痌
痎 病甶疽
痈甹 病甶疽痊
痆甸 痋
痈甶 痈甶痈男
病甶疽痊 痈甶疽痈痍
病甸 疲病甸痊
病甶疽 病甶疽
病甶疾 病甸疽
痈甶痈 畊病甶疽痊
痈甶痈甶 痈甶疽痈甶疽痈痌
甶 病男
甶疾 病甶疾病男
畊 病甶痊
痆甶疽 痌
痟 病
痈甶 痈甶疽
病甶疾病甶疾病甶疾病甶疾 病甶疾病痌
甹 病甶痊
痈甶疽痈 痑
病甶疿 病甶痊
痈甶疽痈甶疽痈甶疽痈甶痈痌 痈甶
痐 病甶疽
病甶 痌
痊病甶疽 痌
痈甶疽痈甶疽 痈甶痈甶
病甶疾病甶疿 病
痈甶疽痈甶疽痈 痍
病甶病甸痆甶 痊病甶疽
痆男 痊
痠 病
痈瘭 甶
痈甶疽痈甶疽痈甶 痈甶痈痌
病甶疾 甶疾
病甸痆男疽 痊
痈甶疽痈甶疽痈甶疽痈甶疽痈痌 痈甶
痈甶疽痈甶痈 男疽
病甶 病甶疿病甶疿痊病甶疿痋
病甸痆 甶疽
痈男 痈甶痈男
病甶病甶疽痈甶疽痈甶疽痈甶疽痈甶疽痈痌 痈
病男疾 病甶
痈痌 痈甶疽
病 痍
痈痋 痈甶疿
痈甶疿 病甶痊
痎 病甶
痈甶痈 甹病甶疽痊
痈甶痈 痏
痈甶疽痈甶痈甶 痈甶疽痈痌
病甶疾 痍
甶病甶疽 痈甶疽痈甶痈甶疽痈甶疽痈痌
病甸 痋
痈甶痈甸 病甶疿病甶疽痋
痈甶疾 痋
痈甶疽痈甶痈甹病甶疽痊 痈甶疽痈痍
痡 病
病甸痆男 痊
病甶 痊病甶疽
痈甶疽痈甶痈畊病甶疽痊 痈甶疽痈痍
痈甶疽痈 痔
痈甸 痑
痈甶痈 痎
痈甶疽痈甶痈甸 病甶疿病甶疽痋
痍 病甶疿
痆 甸疽
痈甶疽痈甶 痈甶疽
病男症 甶疽痋
痈甶痈甶 痈甶
痈甶疽痈 痒
痊病甹 病甹痊病甹
甶疾 男
痏 病甶
痈甶痈 痐
病甶 痍
甶 甶疾
痆甸 痊
痑 病甶疽
痢 病
痏 病甶疽
病甸痆 甸疽
甶疽甶 痈甶
甶疽 男
痆甶 痊
病甶疿病甸痊 痆
痈甶疽痈甶痈甶 疿
痈甶疽痈 痓
痈甸 病甶疿病甶疽痋
痈痌 痈甶疾
病甶疿 病瘭畊
病甶疾病甶疾 病甶疾病甶疿
甶病甶疽 痈甶疽痈甶疽痈甶疽痈甶疽痈痌
痈甶痈甶疿 病甶疽痊
病甸疽 病甸痊
病甶病甶疽 痈甶疽痈甶疽痈甶疽痈甶痈痌
病甹 病甹
痈甶疽痈甶疽 痈甶疽痈痌
痐 病甶
痍 病甸
病甶疿病甸痊 痆甸痋
畚 病甶疽痊
病男疽 病甶疽
痈甶疽痈甶痈 画
男 甶疽
痆甶疽 痍
病画 甸
病甸痆 甶疾
痈 痑
甶疿 病甶疿痊
病甸痆甸痊 痆甶
甹 甶
痋 病男
痣 病
甶疽甶疽 痈甶痈甶
病甹病甹痊病甹 痋病甶
痈甸 痏
病瘭 电
痈男 痈甶痈甶
病男疾 病甶甸
病甶疾病甶疾病甶疽 病甶疾病甶疾病痌
病男疾 甶疾
病甶疿病甶疿痊病甶疿痋 病
病甶疽痈甶疽痈甶疽痈甶疽痈甶疽痈痌 痈甶
痈甶 痌
痈男 痈甶疽痈男
病瘭 甹
痊病甶 病甶
痈甶 痈甶疽痈男
痈甶疽 痋
痈甶疽痈 痕
病甸病甶 病甶
痊 病甶疿
病甶病甶疽痈甶疽痈甶疽痈甶疽痈甶疽痈痌 痈甶痏
痓 病甶疽
痈甶痈甶疿 病甶痊
痈瘭 甶疿
痈 痒
痈甶疽痈甶疽 痈甶疽痈甶疽痈甶痈痌
痐 病甶疾病
甶疽甶疽 痈甶痈甶疽痈甶疽痈甶痈痌
痈甶疽痈甶疽痈 痐
痤 病
病甶 痋病甶疽
病甶疽 痋
痈瘭 甶疾
痈甶疽痈甶疽 痈甶疽痈痍
痈痌 痈甶疿
痆瘭 甶
痈甸 痐
甶疿 甸
病甶病甸痆 男
痈甶痈甶疽痈甶疽 痈甶疽痈甶疽痈甶痈痌
病甶疾 痌
病甶疽 痍
痊病甸 痋
病 畚
痈甶疿 病男痊
病甶疿 病瘭甸
痈甶疽痈 痖
病男症 甶
痈痌 痈男
痈甶疽痈甶痈甶疽痈甶疽痈痌 痈甸痋
病甶 男
痈甶疽痈甶痈甸病甶疿病甶疽痋 痈甶疽痈痎
痆男 疲
病甶疿 病甶疿
病甶病甶疽 痈甶痈甶
病甶疽 痌
痈甶疽 痑
病甸 痍
病男症 瘭
痈甶疽 痊
痈甶疽痈甶痈男 疴
甶 男疽
痈甶 痊病甶疽
痈甶痈男 疴
痆甶 病甶
病甶疾病甶疾病甶疾病甶疾 病痋
病甶病甸痆 甶疾痊
甶疾 甶
痒 病甶疽
病甶疾病甶疽 病
病男 病甶疽
痈甶 病甶
病甸痆甸痊病甶病甶疿病甶疿痊病甶疿痋 病甶疾
痈甶 痋病甶疽
痈甶疽痈甶痈 甸疽
痌 病甸
病甶 病甸痆甸痊
病甸病甶病甶疿病甶疿痊病甶疿痋病甸痎 痆甶疾
痈甶疽痈甶痈甶 病甶疽
病甶病甸痆 甶疽
痥 病
痈 痓
甶疿 病甸痊
痈甶疽 痏
痈甶 痈甶痈痌
病甶疾 甶
病甶疾病甶疾 病甶疾病男
痆 画
痈甶痈 甸疽
痈甶疽痈甶痈甶疽痈甶疽痈痌 痈甹
痈甶痈甶疽痈甶 痈甶疽痈痌
痑 病甶
痈瘭 甿
病甶疾 病男疽病甶
病甸痆 甶疾痊
病男 疴
甶疽 甶疾
痈甶疽痈甶疽痈甶疽痈甶疽痈痌 痈甶疾
痈甶疽痈甶痈甶疽痈甶疽痈痌 痈畊
痈甶疽痈男 痈甶疽痈甶疽痈痌
痈甶疽痈甶疽痈 痏
病甶疾病甶 病痌
病男疾 甶疽
痎 病甸
痆瘭 甶疿
痆甶疽 痊
病男疾 甶病甶疽
甶 甶病甶疽
病画 病甶疿病甸痊痆甸痋
病 痐
病甸痆 瘭
痈甶痈 畊病甶痊
痈甶痈 痑
痈甶疽痈甶痈 痋
病甶疾病甶疾病甶疾病甶疾 病甶疾病甶疾病甶疾病甶疾
痈 痔
痈甶疽痈 痗
病甸 痌
痈甶疽痈甶痈 男疾
痦 病
病甶疿病甶疿痊 病甶
病 痏
病甸痆甸痊 病甶疾病甶病甶疽痈甶疽痈甶疽痈甶疽痈甶疽痈痌
痋 病甶疿
病男疽 病甶病甶疽
病甸 病甶疽
病甶疾病甶疾 病男疽病甶
甶疾甶疾 病甶疽
病男疽 病甶病甶
痎 痈甶疽痈痑
甶疾 甸
痓 病甶
病甶疿 病瘭畚
甶疿 甶疽
病甶疾病甶 病男
病甶疾病甶疾 病甶疿病甶疾
痈甶 病男
甸 画
痈甶痈甸 病甶疿病甶痋
痈瘭 电
病甶疽 痏
甶疿 甶疾
病甸疽 病甶疾
病甶疾病甶疾病男 病甶
痈甶疽痈甶疽痈甶痈 畊病甶疽痊
痈男痈 痏
病甶疾病甶疾病男疽 病甶疾病甶疾病痌
痈痌 痈男疽
痈甶疾 痊
痈甶疽痈 痘
病甶病甸痆 男疾
病男疾 病甸痊
痈男 痋
病甸疽病甸疽痊病 畚
痈甶痈 甹病甶痊
痈甶疽痈甶疽 痈甶痈男
病甶疾病男 病甶
痔 病甶疽
痈甶疽 痐
痈痌 痈畊
痒 病甶
病甶疾病 痍
病 痋病甶
痈甶疽痈 痙
病甶疾病甶疾 病甶疾病甶疽
痈甶痈 痒
病甶疿 病甶疽痊
甶疾甶疾 病男
病画 病甸痆甸痊痆甶
甶 甶疿
痆 甹
痧 病
病甶疿 病瘭甸疽
痊 病瘭畊
病甶疽 痐
病甶疾 病甸病甶
痈痌 痈甹
痈男 痈甶疽痈甶疽痈甶疽痈痌
甶疾 男疽
痈 痕
痊病 畊
病甶疿 病男疽
病痌 病甶
痈甶疽痈甶疽痈甶疽痈甶痈痌 痈甶疾
病男 痍
痈甶疽痈甶疽痈甶疽痈甶疽痈痌 痈甶疽
甶疾 病甶疾病甶疽
病甸疽 甶病甶疽
病甶疾病 画
痈痋 痈甸
痈甶疽痈甶疽 痈甶痈痍
疲 男疴
病甸痆甸痊 病甶疿病甶疽
甸甶 痆甸
痈男 痏
痕 病甶疽
病男 痈甶痈甶
痈甶 痈甶痈甸
病甶疿病甶 痊病甶疽
痈甶 痊病甹病甹痊病甹
病甸 病甶病甶疽
痈甶疽痈甶痈甶 病甹病甹痊病甹痋病甶疽痍
痈甶疽痈 痚
病甶疽痈甶疽痈甶疽痈甶疽痈甶疽痈痌痈甶 痕
病甶疿 痍病甶疿
痈甶痈甶疽痈甶疽痈甶疽痈痌 痈甶痌
痆甶疾 痊
病甶疾病甶疿 病甶疾痋
病甸痆甸疲 痊病甶疽痌
痈甶 痐
男疽 甶
病甸 病甶疾病甶病甶疽痈甶疽痈甶疽痈甶疽痈甶疽痈痌
病甸痆 甶疽痋
病甶疿病甶疿痊 病甶疾
病瘭甸 痆甸疲
病瘭甸痆甸疲 痊病
病画病甶疿病甸痊痆甸痋 痆
病甸疲病甸痊 痆甶疽痌
痆男疽 痊
痈甶痈甶疿 病男痊
痈甶疽痈甶疽痈男 痈甶疽痈痌
痈甶痈 痓
痆甶 痌
病甶疿 病甸疽
痈 痖
甶 症
病甸 痏
痈甶疽痈甶疽 痈甶疽痈男痈痌
痈甶疽痈甶痈 痎
痈男疽 病甶
痈甶疾 病甶疽
痈甶疽痈甶疽痈甶疽痈甶疽痈痌痈甶 痍
痈甶疽痈甶疽痈 痎
痊 病男疽
痈痌 痈
痨 病
病甶病甸痆男 痊
病甶疿病男 痋
病甶病甶疽痈甶疽痈甶疽痈甶疽痈甶疽痈痌 痈甶疾
痆 畊
病甸痆甸 痊病甶疽
病甸痆甶 痊病甶
病甶疾病甸 病
病甶疾病甶疾病男病甶疾病甶疾病痌 病甶痋
病甶病甸痆 甶疿
痈甶疽痈甶疽 痈甶痈甶疾
痈甶痈甶 病甹病甹痊病甹痋病甶疽痍
病甶 痎
病甸痆男疽 痊病甶疽
病甶疾病甶疽 病甶
痊病甶 痌
畇 疴
甶 男疾
病甶 甶
甶疾 病甶
痆甶疽 痎
病甶疾病甶疾 病甶病甶
病甶疾病甶疽 病甶疽
痈甶疽痈甶疽 痈甶疽痈甶疽痈
痆甶 痊病甶
病甶疾 甶病甶疽
痈男 痊
痈甶疽痈 痛
痈甶疽痈甶痈 痐
痈甶痈 痔
病男疽甶疾 病甶疾病男
甶疾 病甶疾病甸
畊 病男痊
痑 痈甶疽痈痔
病甶病甸痆男疽 痊
病甸 痓
病甶疽痈甶疽痈甶疽痈甶疽痈甶疽痈痌痈甶痕 病甶疽痈甶疽痈甶疽痈甶疽痈甶疽痈痌
病瘭甶疿 病
病甶疾病甶疾 病甸疽
病甸 痔
痆瘭 甶疾
痈甶 病甶疽痈甶疽痈甶疽痈甶疽痈甶疽痈痌
痖 病甶疽
痈甶疽痈甶疽痈甶疽痈甶疽痈痌 痈甸
病甶疾病甶疾 病甶疾病甶疾病痌
病 痑
痈甶疽痈甶疽痈甶疽痈 痋
痈 痗
病 痎
痈甸 痌
痔 病甶
病甶疽 痎
痈甶 痈甶疽痈痌
痈甶痈甶疽痈甶疽 痈痍
病甶疽 痆甶
病男 痌
痈画 痋
痈甶疽痈甶 痈甶疽痈男痈痌
病画甸 痆甸痊
痈甶疽痈 痜
病甶病甶疽痈甶疽痈甶痈甶疽痈甶疽痈痌 痈甶痋
痈甶痈男 痈男
痆甸 痍
痒 痈甶疽痈痕
痈甹 病甶痊
病男 痏
病甶病甶疽 痈甶疽痈甶痈甶疽痈甶痈痌
病甹病甹痊病甹 痋病
痆甶疽 痐
病甸 痐
病甶疾病 痋
病甶疾 痎
痆甶疽 痓
病甶病甸痆 甸疽
痈男疽 痋
甶病甶疽 痈甶疽痈甶痈甶
痈痌 痈男疾
痈男痈甶 痈甶疽痈甶疽痈痌
痈甹 病甹
病甸痆甸痊 痆甶疿
病甸 痒
痕 病甶
病甸痆甶疿 痊病甸痋
病甸病甶病甶疿病甶疿痊病甶痋病甶疿病甶疿痊病甸痋病痍病 畚
甶疾 病甶病甶疽
痈男痈 痐
病甸疽 病甶疾痊
痈甶 痑
痩 病
病甶病甸痆 甶疾
痈甸 痓
病 畉
痈甶疽痈甶痈 痏
病甶疿病甶疿痊病甶疽 痌
痈甶痈 畚病甶疽痊
病男 痋
甸甶 痆男疽
痈甶疽痈 画
病甶疾病甶疾病甶疾病甶疿 病甶疾痍
痆甶疽 痏
痈甶痈 痕
痈甶疽痈 痝
甶疽甶 痈甶疾
痊病甶 病男
痗 病甶疽
痈 痘
痋 病瘭畊
痈甶疽痈甶疽痈甶疽痈 痎
痈甶疽 痓
甶疽甶 痈甶疽痈甶疽痈甶痈甶疽痈痌
痈甶痈男 痈甶痈痋
病画 痊
痈甶 痈甶痈男疽
病甶甸 痆甶痊病甶疽
痍 病甶疾
痈甶疽痈甶痈甶疽痈甶疽痈痌 痈甶疾痋
病甶病甶疽 痈甶疽痈甶痈甸
痑 病甶疾病甶疾
痆甶疽 痔
病甸 痕
痈畊 病畊
病甶疾病甶病甶疽痈甶疽痈甶疽痈甶疽痈甶疽痈痌 痈甶疾
痈甶疿 病甶疿
痐病甶疾病 痓
病男症 甶疽
痈甸 痒
甸 痊
病甹病甹 痊病甶
痆甸 痑
病 痓
病甸痆甶疽 痊
痈甶疽痈男 痈男
痈甶疽痈甶疽痈男 痈甶痈痌
病甶疾病甶疽 病痌
病甶疾病甶疽 病甶疾病甶疾病
病 痒
病甸 痑
痈甶疽痈甶疽 痈甶痈甸
痆瘭 甿
病甶 痏
畉 病甶疿病甶疿痊病甶疿痋
甸 甶疿
病男症甶 痋
病甸 痗
甶疾病甶疾病男 病甶疾病甶疾病痌
甸 甶疾
病甶疽 病甶疿病甶疿痊
痈甶疽痈甶痈甶疿 病甶疽痊痈甶疽痈痍
痌 病甶疿
痈甶疾 病甶
病甸 痖
痑 病甶疾病
病甶疽 病甶
痈甶疽痈 痞
痈甶 痈甶疽痈痍
痈甶痈 痖
痈甶疽痈甶痈 甹病甶痊
痊 病瘭甸
病甶病甸痆甶 痊病甶
痈甶疽痈甶疽痈 画
症 甶
病甶病甶疽痈甶疽痈甶疽痈甶疽痈甶疽痈痌痈甶痏 病甶疽痈甶疽痈甶疽痈甶疽痈甶疽痈痌痈甶痕病甶疽痈甶疽痈甶疽痈甶疽痈甶疽痈痌
病甶病甶疽 痈甶疽痈甶疽痈甶痈甶疽痈痌
痎 病甶疾
痈甶疽痈甶痈 畊病甶痊
痍 痈甶疽痈痐
病甶病甶 病甶
畊 甶病甶疽
痈男 痈痍
痈甸 痔
痈甶疽痈甶痈男 痈甶疽痈痌
病甶病甶疽痈甶疽痈甶痈甶疽痈甶疽痈痌 痈甸痋
痆 町
病甸痆甸痊病甶疾病甶病甶疽痈甶疽痈甶疽痈甶疽痈甶疽痈痌 痈
甸 痆甶痊病甶疽
痈甶疽痈男 痈甶痈甶痈痌
病甶疾病甶疾 病甶疾病痌
痈甶疽痈甶疽痈甶疽痈甶疽痈痌 痈男
病甶病甸痆甶疽 痊
痈甶疾 痌
病甶疾病 痏
痈甶疽痈甶 痈甶疽痈痍
痘 病甶疽
痈甶 痈甶痈痋
甶疿 男
病甶病甶疿病甶疿痊病甶疿痋 病甶疿痍病甶疿
甸 甶病甶疽
甶疽甶疽 痈甶疽痈甶痈甶
痈甶疽痈甶疽 痈甶痈痋
痈甶疽痈甶 痈甶痈男
病甶 痊病甶
痈 甿
痌 病甶疾
病男疽 甶
病甶 痐
病甶疾病甶疾病甶疿病甶疾 痑病甶疾病甶疾
痍 病男
痈甶痈男疾 病男痊
痈 痙
痪 病
甶疾 甶病甶疽
痆甶疽 痖
痈甶疽痈 痟
痈痌 痈瘭畊
痎 病男
痈甶疽痈甶疽痈甶痈畊病甶疽痊 痈痌痈
痖 病甶
痈甶疽痈甶痈甶疽痈甶疽痈痌 痈甶疿
痆甶疽 痕
病甸病甶疿病甸痋 痆甶疽痍
痈甶疽痈甶疽痈甶疽痈甶痈痌 痈甸
痈甶疾 病男
痈甶 痈甶疽痈甶痈甶
痈甶疽痈甶痈甸 病甶疿病甶痋
病甸病甶疾病甶病甶疽痈甶疽痈甶疽痈甶疽痈甶疽痈痌 痈甸痑
痊病甶 病甶疿病甶疿痊病甶疿痋
痈甶痈甶 病甶
痈男痈甶 痈甶痈痋
甶疽甶 痈甸
病甶疽 痑
病甶疾病甶 病甸痆甸痊
痈甶疽痈甶痈 畚
痊 病画
痈痋 痈男
病甸 痘
病甶疾病甶疾病甶疾病甶疿病甶疾痍 病甶疾病甶疾病甶疿病甶疾痑病甶疾病甶疾
病甶疾病甶疽 病甶疾病甶疽
病甶疾病 痐
甹 甶病甶疽
痆甶 痍
病甸病甶病甶疿病甶疿痊病甶疿痋病甸痎 痆甶
甶疽甶疽 痈甶痈甶疾
病男症 甶疾
痆甶疾 痌
痒 病甶疾病
病甶疿病甶 痍
痈甸 痕
痆甶疽 痑
痈甶痈 痗
病甶疾病甶 病甸病甸痊
痙 病甶疽
痈甶疽 痈男疽
痈甶疽痈甶疽痈 痑
病甶疿病甶疾痊 病甶疾病
甶疿 甶病甶
痈甶疽痈 痠
病甶 痑
痈男 痈甶疾
痈瘭 甹
痈甶疽痈男 痈甶疽痈痋
